// Auto-generated file: TensorFlow Lite model as a C array
// Source: 2-Training/models/vibration_model.tflite

#pragma once
#include <cstdint>

const unsigned int g_model_len = 3652;
const unsigned char g_model[] = {
  0x1c, 0x00, 0x00, 0x00, 0x54, 0x46, 0x4c, 0x33, 0x14, 0x00, 0x20, 0x00, 
  0x1c, 0x00, 0x18, 0x00, 0x14, 0x00, 0x10, 0x00, 0x0c, 0x00, 0x00, 0x00, 
  0x08, 0x00, 0x04, 0x00, 0x14, 0x00, 0x00, 0x00, 0x1c, 0x00, 0x00, 0x00, 
  0x98, 0x00, 0x00, 0x00, 0xf0, 0x00, 0x00, 0x00, 0x0c, 0x08, 0x00, 0x00, 
  0x1c, 0x08, 0x00, 0x00, 0xe0, 0x0d, 0x00, 0x00, 0x03, 0x00, 0x00, 0x00, 
  0x01, 0x00, 0x00, 0x00, 0x10, 0x00, 0x00, 0x00, 0x00, 0x00, 0x0a, 0x00, 
  0x10, 0x00, 0x0c, 0x00, 0x08, 0x00, 0x04, 0x00, 0x0a, 0x00, 0x00, 0x00, 
  0x0c, 0x00, 0x00, 0x00, 0x1c, 0x00, 0x00, 0x00, 0x3c, 0x00, 0x00, 0x00, 
  0x0f, 0x00, 0x00, 0x00, 0x73, 0x65, 0x72, 0x76, 0x69, 0x6e, 0x67, 0x5f, 
  0x64, 0x65, 0x66, 0x61, 0x75, 0x6c, 0x74, 0x00, 0x01, 0x00, 0x00, 0x00, 
  0x04, 0x00, 0x00, 0x00, 0x90, 0xff, 0xff, 0xff, 0x0a, 0x00, 0x00, 0x00, 
  0x04, 0x00, 0x00, 0x00, 0x08, 0x00, 0x00, 0x00, 0x6f, 0x75, 0x74, 0x70, 
  0x75, 0x74, 0x5f, 0x30, 0x00, 0x00, 0x00, 0x00, 0x01, 0x00, 0x00, 0x00, 
  0x04, 0x00, 0x00, 0x00, 0xda, 0xf7, 0xff, 0xff, 0x04, 0x00, 0x00, 0x00, 
  0x0e, 0x00, 0x00, 0x00, 0x6b, 0x65, 0x72, 0x61, 0x73, 0x5f, 0x74, 0x65, 
  0x6e, 0x73, 0x6f, 0x72, 0x5f, 0x38, 0x00, 0x00, 0x02, 0x00, 0x00, 0x00, 
  0x34, 0x00, 0x00, 0x00, 0x04, 0x00, 0x00, 0x00, 0xdc, 0xff, 0xff, 0xff, 
  0x0d, 0x00, 0x00, 0x00, 0x04, 0x00, 0x00, 0x00, 0x13, 0x00, 0x00, 0x00, 
  0x43, 0x4f, 0x4e, 0x56, 0x45, 0x52, 0x53, 0x49, 0x4f, 0x4e, 0x5f, 0x4d, 
  0x45, 0x54, 0x41, 0x44, 0x41, 0x54, 0x41, 0x00, 0x08, 0x00, 0x0c, 0x00, 
  0x08, 0x00, 0x04, 0x00, 0x08, 0x00, 0x00, 0x00, 0x0c, 0x00, 0x00, 0x00, 
  0x04, 0x00, 0x00, 0x00, 0x13, 0x00, 0x00, 0x00, 0x6d, 0x69, 0x6e, 0x5f, 
  0x72, 0x75, 0x6e, 0x74, 0x69, 0x6d, 0x65, 0x5f, 0x76, 0x65, 0x72, 0x73, 
  0x69, 0x6f, 0x6e, 0x00, 0x0e, 0x00, 0x00, 0x00, 0x18, 0x07, 0x00, 0x00, 
  0x10, 0x07, 0x00, 0x00, 0xd8, 0x06, 0x00, 0x00, 0xbc, 0x06, 0x00, 0x00, 
  0x34, 0x06, 0x00, 0x00, 0x04, 0x03, 0x00, 0x00, 0x14, 0x01, 0x00, 0x00, 
  0xb4, 0x00, 0x00, 0x00, 0xac, 0x00, 0x00, 0x00, 0xa4, 0x00, 0x00, 0x00, 
  0x9c, 0x00, 0x00, 0x00, 0x94, 0x00, 0x00, 0x00, 0x74, 0x00, 0x00, 0x00, 
  0x04, 0x00, 0x00, 0x00, 0x8e, 0xf8, 0xff, 0xff, 0x04, 0x00, 0x00, 0x00, 
  0x60, 0x00, 0x00, 0x00, 0x0c, 0x00, 0x00, 0x00, 0x08, 0x00, 0x0e, 0x00, 
  0x08, 0x00, 0x04, 0x00, 0x08, 0x00, 0x00, 0x00, 0x10, 0x00, 0x00, 0x00, 
  0x28, 0x00, 0x00, 0x00, 0x00, 0x00, 0x06, 0x00, 0x08, 0x00, 0x04, 0x00, 
  0x06, 0x00, 0x00, 0x00, 0x04, 0x00, 0x00, 0x00, 0x01, 0x00, 0x00, 0x00, 
  0xea, 0x03, 0x00, 0x00, 0x0c, 0x00, 0x18, 0x00, 0x14, 0x00, 0x10, 0x00, 
  0x0c, 0x00, 0x04, 0x00, 0x0c, 0x00, 0x00, 0x00, 0xcc, 0x1e, 0x30, 0x7d, 
  0xd3, 0x0c, 0xb3, 0x6f, 0x02, 0x00, 0x00, 0x00, 0x02, 0x00, 0x00, 0x00, 
  0x04, 0x00, 0x00, 0x00, 0x06, 0x00, 0x00, 0x00, 0x32, 0x2e, 0x32, 0x30, 
  0x2e, 0x30, 0x00, 0x00, 0xfa, 0xf8, 0xff, 0xff, 0x04, 0x00, 0x00, 0x00, 
  0x10, 0x00, 0x00, 0x00, 0x31, 0x2e, 0x35, 0x2e, 0x30, 0x00, 0x00, 0x00, 
  0x00, 0x00, 0x00, 0x00, 0x00, 0x00, 0x00, 0x00, 0x04, 0xf4, 0xff, 0xff, 
  0x08, 0xf4, 0xff, 0xff, 0x0c, 0xf4, 0xff, 0xff, 0x10, 0xf4, 0xff, 0xff, 
  0x26, 0xf9, 0xff, 0xff, 0x04, 0x00, 0x00, 0x00, 0x50, 0x00, 0x00, 0x00, 
  0x68, 0x0e, 0x60, 0x3e, 0x86, 0xae, 0x72, 0x3e, 0xfe, 0xf9, 0x58, 0xbc, 
  0xae, 0xe0, 0x38, 0x3e, 0x70, 0x7e, 0x21, 0x3e, 0x11, 0x9e, 0x02, 0x3e, 
  0x20, 0xa5, 0xb6, 0xbd, 0x9d, 0x03, 0x1e, 0x3e, 0xdb, 0xff, 0x0f, 0x3e, 
  0xb3, 0xf1, 0x2d, 0x3d, 0x5f, 0x3d, 0x4d, 0x3e, 0xb6, 0x00, 0xd0, 0x3d, 
  0xcf, 0x37, 0x1b, 0x3e, 0x99, 0x85, 0x84, 0x3e, 0x16, 0x1b, 0x89, 0xbd, 
  0x2d, 0x95, 0x05, 0xbd, 0x68, 0xcc, 0xa7, 0xbc, 0x41, 0x79, 0x93, 0xbd, 
  0xe3, 0x3b, 0x29, 0x3e, 0x0e, 0x71, 0xaf, 0xbd, 0x82, 0xf9, 0xff, 0xff, 
  0x04, 0x00, 0x00, 0x00, 0xe0, 0x01, 0x00, 0x00, 0x11, 0xf0, 0xc0, 0xbe, 
  0xa3, 0x2b, 0x4e, 0xbe, 0xf0, 0xb2, 0x4d, 0x3e, 0xd5, 0x88, 0x59, 0xbe, 
  0xd3, 0xa6, 0x8e, 0xbe, 0xd7, 0x5a, 0x29, 0xbf, 0xee, 0x1d, 0x4e, 0xbf, 
  0xbf, 0x4c, 0x4a, 0x3e, 0x03, 0xd3, 0x32, 0xbf, 0x39, 0xf0, 0xa8, 0xbe, 
  0x0b, 0x14, 0xf3, 0xbe, 0x30, 0x05, 0xcb, 0xbe, 0xf9, 0x3a, 0xdb, 0x3e, 
  0x7d, 0xce, 0x0b, 0x3e, 0xb1, 0x3c, 0x0b, 0x3e, 0xde, 0x80, 0x4b, 0x3e, 
  0x03, 0x88, 0x91, 0x3d, 0xdc, 0x97, 0x0d, 0xbe, 0x12, 0xa5, 0xd7, 0x3e, 
  0x70, 0x2d, 0x00, 0xbf, 0xc5, 0x03, 0xb4, 0x3e, 0x86, 0x1e, 0x0c, 0xbf, 
  0x77, 0x39, 0xb1, 0xbe, 0xb4, 0x98, 0xa5, 0xbe, 0xc1, 0x51, 0xf2, 0x3e, 
  0x69, 0x88, 0x2e, 0xbe, 0xf9, 0x99, 0x19, 0x3f, 0xec, 0x86, 0x42, 0x3e, 
  0x95, 0xdd, 0x0f, 0xbe, 0x71, 0x2a, 0xfe, 0xbd, 0x7b, 0xb0, 0x59, 0x3e, 
  0x0b, 0x7b, 0xf0, 0x3e, 0x83, 0x52, 0x05, 0xbd, 0x61, 0xa5, 0xda, 0x3d, 
  0x50, 0xc6, 0xc7, 0x3e, 0x80, 0xa1, 0xa3, 0x3e, 0x38, 0x70, 0x84, 0xbe, 
  0x89, 0x03, 0x15, 0xbf, 0xc9, 0x9f, 0x86, 0x3d, 0x9f, 0x01, 0xc9, 0x3e, 
  0x14, 0xce, 0x13, 0xbd, 0xe7, 0x74, 0x49, 0x3e, 0x98, 0xb5, 0x25, 0x3c, 
  0xf2, 0x3f, 0x08, 0x3f, 0x85, 0x92, 0xd3, 0x3e, 0xdf, 0xe5, 0xe9, 0x3d, 
  0xd9, 0xa9, 0x14, 0xbe, 0x15, 0xde, 0x0b, 0x3e, 0x12, 0xf5, 0x27, 0xbf, 
  0x51, 0x43, 0xa1, 0xbe, 0x59, 0x03, 0x0b, 0xbf, 0xf7, 0x7e, 0x58, 0x3e, 
  0x35, 0xda, 0x9c, 0x3e, 0x9f, 0x78, 0x1d, 0x3e, 0x13, 0xad, 0x49, 0xbe, 
  0xb6, 0xc3, 0xce, 0x3e, 0x2e, 0xfa, 0x27, 0xbf, 0x54, 0xcb, 0xa3, 0x3e, 
  0x39, 0x12, 0xf4, 0xbe, 0xa3, 0xef, 0x83, 0x3e, 0x19, 0xdf, 0x27, 0xbf, 
  0x66, 0x41, 0x8c, 0x3e, 0x4e, 0x8d, 0x50, 0xbf, 0xad, 0x3d, 0xe6, 0xbc, 
  0xdd, 0x03, 0xda, 0x3c, 0x43, 0x83, 0x0e, 0xbd, 0x95, 0x63, 0x26, 0x3e, 
  0xd8, 0x59, 0x1c, 0xbf, 0xe7, 0xa0, 0x5f, 0xbe, 0x95, 0x66, 0xad, 0xbe, 
  0x95, 0x7a, 0x40, 0x3e, 0xe2, 0x34, 0x6b, 0xbe, 0xa1, 0xb7, 0xcf, 0x3e, 
  0x12, 0xe5, 0xf6, 0x3e, 0xea, 0x60, 0x12, 0x3f, 0x59, 0x4d, 0xb1, 0xbe, 
  0x24, 0x1a, 0xa6, 0x3c, 0x02, 0x51, 0xa1, 0xbe, 0xb6, 0x40, 0x09, 0xbe, 
  0x8c, 0x79, 0x0c, 0xbf, 0x72, 0xbc, 0xb7, 0xbd, 0x5f, 0x09, 0xb7, 0xbd, 
  0x98, 0xbf, 0x30, 0xbf, 0x37, 0xa8, 0x99, 0xbe, 0xf3, 0x6b, 0x37, 0xbe, 
  0xd9, 0x67, 0x15, 0x3e, 0x62, 0xbd, 0xab, 0x3e, 0xe6, 0xac, 0xd4, 0xbd, 
  0x9b, 0x23, 0xa6, 0xbe, 0xc0, 0x0f, 0x13, 0xbe, 0xdd, 0x5e, 0x81, 0x3e, 
  0x6c, 0x6f, 0x8e, 0x3e, 0x98, 0x94, 0x9a, 0x3e, 0x37, 0xf5, 0x4b, 0x3e, 
  0x99, 0xb9, 0xf2, 0xbd, 0x9f, 0x16, 0x26, 0x3e, 0x84, 0x73, 0xe6, 0x3d, 
  0x04, 0xda, 0x1a, 0xbf, 0x44, 0x2a, 0x5d, 0x3e, 0x06, 0x01, 0x40, 0x3e, 
  0xcc, 0x93, 0x8b, 0xbe, 0xad, 0x00, 0xf5, 0xbe, 0x33, 0x28, 0x3c, 0x3e, 
  0x2d, 0x39, 0xbd, 0xbd, 0x28, 0x82, 0x1e, 0x3d, 0x88, 0x39, 0x7a, 0x3e, 
  0x05, 0x65, 0x4c, 0x3e, 0x03, 0x15, 0xf7, 0x3d, 0xd8, 0xf0, 0x8d, 0x3e, 
  0xdc, 0x31, 0x02, 0x3f, 0x33, 0x34, 0xcb, 0x3e, 0xb4, 0xac, 0x9d, 0x3e, 
  0x03, 0xe8, 0x1d, 0xbe, 0x90, 0xa3, 0x0c, 0xbe, 0x4f, 0x4c, 0xd1, 0xbe, 
  0x91, 0x2e, 0xe4, 0x3d, 0x8c, 0x8f, 0xb1, 0x3e, 0x4c, 0x5f, 0x10, 0x3d, 
  0x45, 0x9e, 0x1c, 0x3e, 0x3a, 0x26, 0x54, 0x3e, 0x6e, 0xfb, 0xff, 0xff, 
  0x04, 0x00, 0x00, 0x00, 0x20, 0x03, 0x00, 0x00, 0xce, 0xac, 0x6f, 0xbe, 
  0xb0, 0x30, 0xbd, 0xbe, 0x21, 0xed, 0xa5, 0xbe, 0x91, 0x12, 0xb7, 0x3e, 
  0xbc, 0x59, 0xad, 0xbd, 0xdc, 0x9f, 0x8c, 0x3d, 0xe9, 0x37, 0x18, 0xbe, 
  0xf3, 0x3d, 0x70, 0xbd, 0x2d, 0x6c, 0x19, 0x3d, 0x60, 0x4e, 0x84, 0xbe, 
  0xc8, 0x49, 0xa4, 0xbe, 0x04, 0x8d, 0xba, 0xbe, 0x26, 0xe5, 0xa9, 0xbd, 
  0xff, 0xd3, 0x98, 0xbe, 0xb1, 0xe8, 0xaf, 0x3e, 0x17, 0x22, 0xd5, 0x3e, 
  0x07, 0x22, 0x87, 0x3e, 0x24, 0xce, 0xc4, 0xbe, 0x9b, 0x89, 0x56, 0xbe, 
  0xb4, 0xd9, 0x2a, 0x3e, 0x39, 0x58, 0xcf, 0xbe, 0xaa, 0x16, 0xc9, 0xbd, 
  0xef, 0xf0, 0x19, 0x3f, 0xba, 0x0e, 0xeb, 0xbc, 0x5b, 0x9a, 0x15, 0x3f, 
  0x56, 0x97, 0x14, 0xbe, 0xd7, 0x3b, 0xf1, 0xbd, 0x7c, 0x79, 0xd1, 0x3e, 
  0x35, 0x63, 0x51, 0x3e, 0x41, 0x9f, 0x12, 0xbe, 0x37, 0x80, 0xda, 0x3d, 
  0x1a, 0xb1, 0x95, 0xbe, 0xd3, 0xa9, 0x7b, 0xbd, 0x39, 0x4e, 0x35, 0x3e, 
  0xff, 0xf3, 0xa8, 0x3e, 0x9e, 0xed, 0xef, 0x3e, 0x73, 0x8e, 0xb5, 0x3e, 
  0x66, 0xc2, 0x8e, 0x3e, 0x6b, 0x0d, 0x97, 0x3e, 0x55, 0xdd, 0x7c, 0x3d, 
  0x78, 0x51, 0xd2, 0x3d, 0x8f, 0x06, 0x0b, 0x3f, 0xb5, 0xd8, 0x8d, 0x3d, 
  0xfd, 0xbe, 0x42, 0xbf, 0xfc, 0x55, 0x04, 0x3f, 0x39, 0x56, 0x1e, 0xbe, 
  0x11, 0x6e, 0x73, 0xbe, 0xf5, 0x5c, 0x42, 0x3f, 0x5b, 0x35, 0xfa, 0x3e, 
  0xbc, 0x81, 0x63, 0x3f, 0x7b, 0x55, 0x25, 0xbe, 0x40, 0x0d, 0xb1, 0xbe, 
  0xb4, 0x14, 0xa2, 0x3e, 0xf2, 0x40, 0x4a, 0xbe, 0x56, 0x7a, 0xcd, 0xbd, 
  0x85, 0x2f, 0xa2, 0x3e, 0x5f, 0x7e, 0x15, 0xbe, 0x32, 0xec, 0xe0, 0x3d, 
  0x17, 0x72, 0x51, 0x3f, 0x55, 0xc1, 0xf4, 0xbd, 0x30, 0x6a, 0xca, 0xbe, 
  0x00, 0xcd, 0xa7, 0x3e, 0x8d, 0x94, 0xaf, 0x3d, 0x23, 0x86, 0x85, 0x3e, 
  0x69, 0xd6, 0x83, 0x3e, 0xb0, 0xb7, 0x87, 0x3e, 0xdb, 0xb9, 0x95, 0xbd, 
  0xa4, 0x07, 0x1b, 0x3f, 0xc5, 0x76, 0xa5, 0xbe, 0x1f, 0xb0, 0xa8, 0xbe, 
  0xc5, 0xa5, 0x22, 0x3e, 0xcc, 0x7c, 0xb0, 0x3d, 0xb4, 0x7e, 0x8a, 0x3e, 
  0xde, 0xf1, 0xe4, 0xbe, 0x9a, 0x83, 0xc6, 0x3e, 0x0a, 0x65, 0x65, 0xbd, 
  0xf4, 0x95, 0x04, 0xbe, 0xdf, 0xc6, 0x4c, 0x3e, 0x7d, 0x28, 0x96, 0x3e, 
  0xed, 0x8a, 0xa2, 0xbe, 0x2c, 0x80, 0x64, 0xbe, 0x05, 0x78, 0x65, 0xbd, 
  0x7f, 0x3b, 0xd2, 0xbd, 0xcd, 0x8d, 0xac, 0xbe, 0x49, 0xd4, 0xb8, 0x3e, 
  0xf0, 0xc2, 0x00, 0x3f, 0x1d, 0x78, 0x01, 0x3d, 0x11, 0x8e, 0x0b, 0x3f, 
  0x36, 0x28, 0xe7, 0x3e, 0x89, 0xeb, 0x6e, 0xbe, 0xdc, 0x9d, 0x9e, 0x3c, 
  0x45, 0x75, 0x57, 0x3e, 0x2d, 0x82, 0x7f, 0xbe, 0xdb, 0x73, 0x56, 0xbe, 
  0xac, 0x05, 0x0b, 0xbe, 0x20, 0x9e, 0x96, 0x3e, 0xce, 0xfa, 0xfc, 0xbe, 
  0xa8, 0x7b, 0xce, 0xbd, 0x43, 0x29, 0xb2, 0xbe, 0x2d, 0xbc, 0xe3, 0xbd, 
  0x1c, 0x94, 0x1d, 0x3f, 0x3c, 0x7f, 0x20, 0x3f, 0xf1, 0x23, 0x30, 0xbe, 
  0xe1, 0x6a, 0x6d, 0x3f, 0x5d, 0xe9, 0xa1, 0xbe, 0x61, 0xe0, 0x9e, 0x3e, 
  0x66, 0xcc, 0x1d, 0x3b, 0x5f, 0xfd, 0x6e, 0x3e, 0x01, 0x80, 0xbe, 0x3e, 
  0xe5, 0x97, 0xd4, 0xbe, 0x27, 0x91, 0xc8, 0x3e, 0xbc, 0xbd, 0x6c, 0x3e, 
  0x42, 0x96, 0x8e, 0xbd, 0xb9, 0x7b, 0x4b, 0x3f, 0xeb, 0xf3, 0xcb, 0x3d, 
  0xa9, 0x1e, 0xe4, 0x3c, 0xa9, 0xeb, 0xa8, 0x3e, 0x83, 0x5c, 0x22, 0xbb, 
  0x96, 0x36, 0xe6, 0xbe, 0xe3, 0xdb, 0xc4, 0x3e, 0x60, 0x53, 0x2e, 0x3c, 
  0x13, 0xab, 0xe0, 0x3e, 0x44, 0x2e, 0xac, 0x3c, 0x8f, 0xf2, 0x5c, 0xbf, 
  0x6b, 0xf0, 0x70, 0x3e, 0xaf, 0xb1, 0x04, 0x3f, 0x51, 0x10, 0xbf, 0xbe, 
  0xc0, 0x01, 0xe1, 0x3e, 0xb3, 0x82, 0xaa, 0x3d, 0x7e, 0x76, 0x83, 0x3f, 
  0x70, 0x98, 0xa5, 0x3e, 0x05, 0x7a, 0xb4, 0xbe, 0x5b, 0x01, 0xfb, 0x3e, 
  0x3c, 0x00, 0x8a, 0x3c, 0xbc, 0x13, 0xae, 0xbe, 0x9d, 0xcf, 0x83, 0xbe, 
  0x1b, 0x89, 0x0d, 0xbf, 0xc1, 0xee, 0x60, 0x3d, 0x4d, 0x8d, 0x5d, 0xbe, 
  0x76, 0x5c, 0x7a, 0x3e, 0x6c, 0xa3, 0x1f, 0x3d, 0xbe, 0xf4, 0x03, 0xbf, 
  0x54, 0xb9, 0x40, 0xbe, 0xb9, 0x04, 0xee, 0x3e, 0xf9, 0xf0, 0xe8, 0x3e, 
  0xa6, 0x83, 0x7b, 0xbe, 0xdd, 0xd6, 0xae, 0x3e, 0x88, 0xbf, 0x61, 0x3e, 
  0xfc, 0x72, 0x80, 0x3e, 0x09, 0x26, 0xc7, 0xbe, 0x67, 0x96, 0x89, 0x3e, 
  0xfe, 0x7e, 0x7a, 0x3c, 0x85, 0x89, 0x7f, 0x3d, 0xd1, 0xbb, 0x62, 0xbd, 
  0xa5, 0xe0, 0xb3, 0xbe, 0x79, 0xe8, 0x99, 0x3e, 0xd0, 0x0c, 0xa7, 0xbe, 
  0x66, 0x22, 0xc2, 0xbe, 0x04, 0xf3, 0xec, 0x3e, 0x37, 0x3b, 0x8e, 0x3d, 
  0x30, 0x1c, 0xc4, 0x3d, 0x47, 0xc5, 0xa0, 0x3b, 0x72, 0xfb, 0x0e, 0x3d, 
  0x4c, 0xa2, 0x1e, 0xbf, 0xc0, 0x7a, 0xec, 0xbe, 0xc6, 0x9e, 0xd1, 0x3d, 
  0x60, 0x45, 0x3a, 0x3e, 0x4d, 0xf6, 0x77, 0xbe, 0x15, 0x0c, 0xaa, 0x3e, 
  0x2f, 0xa5, 0xd9, 0x3e, 0xb3, 0xb8, 0xbf, 0x3e, 0x0b, 0x0b, 0x1f, 0x3e, 
  0x30, 0xa9, 0x49, 0x3e, 0x56, 0x6f, 0xd7, 0xbd, 0x83, 0x42, 0xb9, 0xbd, 
  0x9c, 0x61, 0x38, 0xbe, 0xee, 0x44, 0x52, 0xbf, 0x6f, 0x5c, 0xa5, 0xbe, 
  0x5d, 0x7d, 0x3e, 0x3e, 0xa3, 0x8e, 0x63, 0x3d, 0x46, 0xf9, 0x08, 0x3f, 
  0x24, 0x28, 0x88, 0x3e, 0xdb, 0x8a, 0x8e, 0xbe, 0xf0, 0xf6, 0x0c, 0xbf, 
  0xb2, 0x0c, 0x98, 0xbe, 0x9f, 0x35, 0x98, 0xbe, 0x80, 0xf4, 0xb3, 0x3c, 
  0xec, 0xdb, 0x10, 0xbe, 0x37, 0x2f, 0x79, 0x3e, 0xca, 0xe1, 0x60, 0x3e, 
  0xa8, 0x42, 0xa1, 0x3e, 0x4c, 0xf4, 0xd4, 0x3e, 0xce, 0x2d, 0x2f, 0x3e, 
  0x66, 0x32, 0xce, 0x3e, 0x4f, 0x58, 0x35, 0xbe, 0xb5, 0xec, 0x9f, 0x3e, 
  0xb7, 0x90, 0xdd, 0xbe, 0x79, 0x7c, 0x19, 0x3e, 0x69, 0xdb, 0x98, 0x3e, 
  0x7b, 0x0d, 0xda, 0xbe, 0x9a, 0xfe, 0xff, 0xff, 0x04, 0x00, 0x00, 0x00, 
  0x78, 0x00, 0x00, 0x00, 0xe2, 0x36, 0x32, 0x3e, 0xf1, 0xfa, 0x89, 0x3e, 
  0x3c, 0x41, 0x5d, 0xbf, 0xf9, 0xa1, 0xc3, 0xbe, 0x25, 0x55, 0x22, 0xbf, 
  0xe2, 0x96, 0x49, 0x3f, 0x72, 0x7d, 0xc1, 0xbf, 0x78, 0xe8, 0x1f, 0xbf, 
  0xd5, 0x46, 0x1c, 0xbe, 0x51, 0xac, 0x9c, 0x3e, 0x0d, 0x71, 0x23, 0x3e, 
  0x90, 0x26, 0x67, 0x3e, 0xa0, 0x90, 0xef, 0x3e, 0x5d, 0xc9, 0x69, 0xbf, 
  0x18, 0x1f, 0x4c, 0x3e, 0xc3, 0x8c, 0x2a, 0x3e, 0x64, 0x68, 0x1b, 0x3f, 
  0x0f, 0x3e, 0x0a, 0xbf, 0x7e, 0xbe, 0x50, 0x3f, 0xdc, 0x1f, 0x03, 0x3f, 
  0x7d, 0x76, 0x24, 0xbf, 0x03, 0x65, 0xf1, 0x3e, 0x35, 0xb2, 0xd2, 0x3e, 
  0xed, 0x1e, 0x28, 0x3f, 0x2f, 0x72, 0x75, 0x3e, 0x95, 0xa6, 0x9c, 0xbe, 
  0x00, 0x02, 0xa4, 0x3e, 0xce, 0xcd, 0x04, 0x3f, 0x5b, 0xb4, 0x44, 0xbf, 
  0xb0, 0x69, 0x24, 0xbf, 0x1e, 0xff, 0xff, 0xff, 0x04, 0x00, 0x00, 0x00, 
  0x0c, 0x00, 0x00, 0x00, 0x06, 0x96, 0x13, 0x3e, 0xe0, 0x49, 0x8f, 0xbd, 
  0x04, 0x51, 0x09, 0xbe, 0x36, 0xff, 0xff, 0xff, 0x04, 0x00, 0x00, 0x00, 
  0x28, 0x00, 0x00, 0x00, 0xb5, 0x76, 0xd4, 0xbc, 0xbc, 0x3c, 0x36, 0x3d, 
  0x8d, 0xe7, 0xd3, 0xbc, 0x3d, 0x00, 0xa5, 0x3d, 0x93, 0x79, 0xed, 0x3c, 
  0x85, 0x5c, 0x73, 0x3e, 0xbf, 0x70, 0xf0, 0x3d, 0xff, 0xde, 0x0c, 0xba, 
  0x38, 0xc8, 0x95, 0x3d, 0x95, 0x96, 0x0c, 0x3e, 0x58, 0xfa, 0xff, 0xff, 
  0x5c, 0xfa, 0xff, 0xff, 0x0f, 0x00, 0x00, 0x00, 0x4d, 0x4c, 0x49, 0x52, 
  0x20, 0x43, 0x6f, 0x6e, 0x76, 0x65, 0x72, 0x74, 0x65, 0x64, 0x2e, 0x00, 
  0x01, 0x00, 0x00, 0x00, 0x14, 0x00, 0x00, 0x00, 0x00, 0x00, 0x0e, 0x00, 
  0x18, 0x00, 0x14, 0x00, 0x10, 0x00, 0x0c, 0x00, 0x08, 0x00, 0x04, 0x00, 
  0x0e, 0x00, 0x00, 0x00, 0x14, 0x00, 0x00, 0x00, 0x1c, 0x00, 0x00, 0x00, 
  0x24, 0x01, 0x00, 0x00, 0x28, 0x01, 0x00, 0x00, 0x2c, 0x01, 0x00, 0x00, 
  0x04, 0x00, 0x00, 0x00, 0x6d, 0x61, 0x69, 0x6e, 0x00, 0x00, 0x00, 0x00, 
  0x04, 0x00, 0x00, 0x00, 0xcc, 0x00, 0x00, 0x00, 0x84, 0x00, 0x00, 0x00, 
  0x50, 0x00, 0x00, 0x00, 0x14, 0x00, 0x00, 0x00, 0x00, 0x00, 0x0e, 0x00, 
  0x1a, 0x00, 0x14, 0x00, 0x10, 0x00, 0x0c, 0x00, 0x0b, 0x00, 0x04, 0x00, 
  0x0e, 0x00, 0x00, 0x00, 0x1c, 0x00, 0x00, 0x00, 0x00, 0x00, 0x00, 0x09, 
  0x1c, 0x00, 0x00, 0x00, 0x20, 0x00, 0x00, 0x00, 0x01, 0x00, 0x00, 0x00, 
  0x00, 0x00, 0x06, 0x00, 0x08, 0x00, 0x04, 0x00, 0x06, 0x00, 0x00, 0x00, 
  0x00, 0x00, 0x80, 0x3f, 0x01, 0x00, 0x00, 0x00, 0x0a, 0x00, 0x00, 0x00, 
  0x01, 0x00, 0x00, 0x00, 0x09, 0x00, 0x00, 0x00, 0x9a, 0xff, 0xff, 0xff, 
  0x10, 0x00, 0x00, 0x00, 0x00, 0x00, 0x00, 0x08, 0x0c, 0x00, 0x00, 0x00, 
  0x10, 0x00, 0x00, 0x00, 0x20, 0xfb, 0xff, 0xff, 0x01, 0x00, 0x00, 0x00, 
  0x09, 0x00, 0x00, 0x00, 0x03, 0x00, 0x00, 0x00, 0x08, 0x00, 0x00, 0x00, 
  0x03, 0x00, 0x00, 0x00, 0x02, 0x00, 0x00, 0x00, 0xca, 0xff, 0xff, 0xff, 
  0x10, 0x00, 0x00, 0x00, 0x00, 0x00, 0x00, 0x08, 0x10, 0x00, 0x00, 0x00, 
  0x14, 0x00, 0x00, 0x00, 0xba, 0xff, 0xff, 0xff, 0x00, 0x00, 0x00, 0x01, 
  0x01, 0x00, 0x00, 0x00, 0x08, 0x00, 0x00, 0x00, 0x03, 0x00, 0x00, 0x00, 
  0x07, 0x00, 0x00, 0x00, 0x04, 0x00, 0x00, 0x00, 0x01, 0x00, 0x00, 0x00, 
  0x00, 0x00, 0x0e, 0x00, 0x16, 0x00, 0x00, 0x00, 0x10, 0x00, 0x0c, 0x00, 
  0x0b, 0x00, 0x04, 0x00, 0x0e, 0x00, 0x00, 0x00, 0x18, 0x00, 0x00, 0x00, 
  0x00, 0x00, 0x00, 0x08, 0x18, 0x00, 0x00, 0x00, 0x1c, 0x00, 0x00, 0x00, 
  0x00, 0x00, 0x06, 0x00, 0x08, 0x00, 0x07, 0x00, 0x06, 0x00, 0x00, 0x00, 
  0x00, 0x00, 0x00, 0x01, 0x01, 0x00, 0x00, 0x00, 0x07, 0x00, 0x00, 0x00, 
  0x03, 0x00, 0x00, 0x00, 0x00, 0x00, 0x00, 0x00, 0x05, 0x00, 0x00, 0x00, 
  0x06, 0x00, 0x00, 0x00, 0x01, 0x00, 0x00, 0x00, 0x0a, 0x00, 0x00, 0x00, 
  0x01, 0x00, 0x00, 0x00, 0x00, 0x00, 0x00, 0x00, 0x0b, 0x00, 0x00, 0x00, 
  0x08, 0x04, 0x00, 0x00, 0xb4, 0x03, 0x00, 0x00, 0x60, 0x03, 0x00, 0x00, 
  0x20, 0x03, 0x00, 0x00, 0xe0, 0x02, 0x00, 0x00, 0x90, 0x02, 0x00, 0x00, 
  0x24, 0x02, 0x00, 0x00, 0x84, 0x01, 0x00, 0x00, 0xe4, 0x00, 0x00, 0x00, 
  0x60, 0x00, 0x00, 0x00, 0x04, 0x00, 0x00, 0x00, 0x3a, 0xfc, 0xff, 0xff, 
  0x00, 0x00, 0x00, 0x01, 0x14, 0x00, 0x00, 0x00, 0x1c, 0x00, 0x00, 0x00, 
  0x1c, 0x00, 0x00, 0x00, 0x0b, 0x00, 0x00, 0x00, 0x34, 0x00, 0x00, 0x00, 
  0x02, 0x00, 0x00, 0x00, 0xff, 0xff, 0xff, 0xff, 0x03, 0x00, 0x00, 0x00, 
  0x24, 0xfc, 0xff, 0xff, 0x1b, 0x00, 0x00, 0x00, 0x53, 0x74, 0x61, 0x74, 
  0x65, 0x66, 0x75, 0x6c, 0x50, 0x61, 0x72, 0x74, 0x69, 0x74, 0x69, 0x6f, 
  0x6e, 0x65, 0x64, 0x43, 0x61, 0x6c, 0x6c, 0x5f, 0x31, 0x3a, 0x30, 0x00, 
  0x02, 0x00, 0x00, 0x00, 0x01, 0x00, 0x00, 0x00, 0x03, 0x00, 0x00, 0x00, 
  0x92, 0xfc, 0xff, 0xff, 0x00, 0x00, 0x00, 0x01, 0x14, 0x00, 0x00, 0x00, 
  0x1c, 0x00, 0x00, 0x00, 0x1c, 0x00, 0x00, 0x00, 0x0a, 0x00, 0x00, 0x00, 
  0x5c, 0x00, 0x00, 0x00, 0x02, 0x00, 0x00, 0x00, 0xff, 0xff, 0xff, 0xff, 
  0x03, 0x00, 0x00, 0x00, 0x7c, 0xfc, 0xff, 0xff, 0x40, 0x00, 0x00, 0x00, 
  0x73, 0x65, 0x71, 0x75, 0x65, 0x6e, 0x74, 0x69, 0x61, 0x6c, 0x5f, 0x32, 
  0x5f, 0x31, 0x2f, 0x64, 0x65, 0x6e, 0x73, 0x65, 0x5f, 0x38, 0x5f, 0x31, 
  0x2f, 0x4d, 0x61, 0x74, 0x4d, 0x75, 0x6c, 0x3b, 0x73, 0x65, 0x71, 0x75, 
  0x65, 0x6e, 0x74, 0x69, 0x61, 0x6c, 0x5f, 0x32, 0x5f, 0x31, 0x2f, 0x64, 
  0x65, 0x6e, 0x73, 0x65, 0x5f, 0x38, 0x5f, 0x31, 0x2f, 0x42, 0x69, 0x61, 
  0x73, 0x41, 0x64, 0x64, 0x00, 0x00, 0x00, 0x00, 0x02, 0x00, 0x00, 0x00, 
  0x01, 0x00, 0x00, 0x00, 0x03, 0x00, 0x00, 0x00, 0x12, 0xfd, 0xff, 0xff, 
  0x00, 0x00, 0x00, 0x01, 0x14, 0x00, 0x00, 0x00, 0x1c, 0x00, 0x00, 0x00, 
  0x1c, 0x00, 0x00, 0x00, 0x09, 0x00, 0x00, 0x00, 0x78, 0x00, 0x00, 0x00, 
  0x02, 0x00, 0x00, 0x00, 0xff, 0xff, 0xff, 0xff, 0x0a, 0x00, 0x00, 0x00, 
  0xfc, 0xfc, 0xff, 0xff, 0x5e, 0x00, 0x00, 0x00, 0x73, 0x65, 0x71, 0x75, 
  0x65, 0x6e, 0x74, 0x69, 0x61, 0x6c, 0x5f, 0x32, 0x5f, 0x31, 0x2f, 0x64, 
  0x65, 0x6e, 0x73, 0x65, 0x5f, 0x37, 0x5f, 0x31, 0x2f, 0x4d, 0x61, 0x74, 
  0x4d, 0x75, 0x6c, 0x3b, 0x73, 0x65, 0x71, 0x75, 0x65, 0x6e, 0x74, 0x69, 
  0x61, 0x6c, 0x5f, 0x32, 0x5f, 0x31, 0x2f, 0x64, 0x65, 0x6e, 0x73, 0x65, 
  0x5f, 0x37, 0x5f, 0x31, 0x2f, 0x52, 0x65, 0x6c, 0x75, 0x3b, 0x73, 0x65, 
  0x71, 0x75, 0x65, 0x6e, 0x74, 0x69, 0x61, 0x6c, 0x5f, 0x32, 0x5f, 0x31, 
  0x2f, 0x64, 0x65, 0x6e, 0x73, 0x65, 0x5f, 0x37, 0x5f, 0x31, 0x2f, 0x42, 
  0x69, 0x61, 0x73, 0x41, 0x64, 0x64, 0x00, 0x00, 0x02, 0x00, 0x00, 0x00, 
  0x01, 0x00, 0x00, 0x00, 0x0a, 0x00, 0x00, 0x00, 0xae, 0xfd, 0xff, 0xff, 
  0x00, 0x00, 0x00, 0x01, 0x14, 0x00, 0x00, 0x00, 0x1c, 0x00, 0x00, 0x00, 
  0x1c, 0x00, 0x00, 0x00, 0x08, 0x00, 0x00, 0x00, 0x78, 0x00, 0x00, 0x00, 
  0x02, 0x00, 0x00, 0x00, 0xff, 0xff, 0xff, 0xff, 0x14, 0x00, 0x00, 0x00, 
  0x98, 0xfd, 0xff, 0xff, 0x5e, 0x00, 0x00, 0x00, 0x73, 0x65, 0x71, 0x75, 
  0x65, 0x6e, 0x74, 0x69, 0x61, 0x6c, 0x5f, 0x32, 0x5f, 0x31, 0x2f, 0x64, 
  0x65, 0x6e, 0x73, 0x65, 0x5f, 0x36, 0x5f, 0x31, 0x2f, 0x4d, 0x61, 0x74, 
  0x4d, 0x75, 0x6c, 0x3b, 0x73, 0x65, 0x71, 0x75, 0x65, 0x6e, 0x74, 0x69, 
  0x61, 0x6c, 0x5f, 0x32, 0x5f, 0x31, 0x2f, 0x64, 0x65, 0x6e, 0x73, 0x65, 
  0x5f, 0x36, 0x5f, 0x31, 0x2f, 0x52, 0x65, 0x6c, 0x75, 0x3b, 0x73, 0x65, 
  0x71, 0x75, 0x65, 0x6e, 0x74, 0x69, 0x61, 0x6c, 0x5f, 0x32, 0x5f, 0x31, 
  0x2f, 0x64, 0x65, 0x6e, 0x73, 0x65, 0x5f, 0x36, 0x5f, 0x31, 0x2f, 0x42, 
  0x69, 0x61, 0x73, 0x41, 0x64, 0x64, 0x00, 0x00, 0x02, 0x00, 0x00, 0x00, 
  0x01, 0x00, 0x00, 0x00, 0x14, 0x00, 0x00, 0x00, 0x9a, 0xfe, 0xff, 0xff, 
  0x00, 0x00, 0x00, 0x01, 0x10, 0x00, 0x00, 0x00, 0x10, 0x00, 0x00, 0x00, 
  0x07, 0x00, 0x00, 0x00, 0x4c, 0x00, 0x00, 0x00, 0x24, 0xfe, 0xff, 0xff, 
  0x3e, 0x00, 0x00, 0x00, 0x73, 0x65, 0x71, 0x75, 0x65, 0x6e, 0x74, 0x69, 
  0x61, 0x6c, 0x5f, 0x32, 0x5f, 0x31, 0x2f, 0x64, 0x65, 0x6e, 0x73, 0x65, 
  0x5f, 0x36, 0x5f, 0x31, 0x2f, 0x52, 0x65, 0x6c, 0x75, 0x3b, 0x73, 0x65, 
  0x71, 0x75, 0x65, 0x6e, 0x74, 0x69, 0x61, 0x6c, 0x5f, 0x32, 0x5f, 0x31, 
  0x2f, 0x64, 0x65, 0x6e, 0x73, 0x65, 0x5f, 0x36, 0x5f, 0x31, 0x2f, 0x42, 
  0x69, 0x61, 0x73, 0x41, 0x64, 0x64, 0x00, 0x00, 0x01, 0x00, 0x00, 0x00, 
  0x14, 0x00, 0x00, 0x00, 0x02, 0xff, 0xff, 0xff, 0x00, 0x00, 0x00, 0x01, 
  0x10, 0x00, 0x00, 0x00, 0x10, 0x00, 0x00, 0x00, 0x06, 0x00, 0x00, 0x00, 
  0x2c, 0x00, 0x00, 0x00, 0x8c, 0xfe, 0xff, 0xff, 0x1f, 0x00, 0x00, 0x00, 
  0x73, 0x65, 0x71, 0x75, 0x65, 0x6e, 0x74, 0x69, 0x61, 0x6c, 0x5f, 0x32, 
  0x5f, 0x31, 0x2f, 0x64, 0x65, 0x6e, 0x73, 0x65, 0x5f, 0x36, 0x5f, 0x31, 
  0x2f, 0x4d, 0x61, 0x74, 0x4d, 0x75, 0x6c, 0x00, 0x02, 0x00, 0x00, 0x00, 
  0x14, 0x00, 0x00, 0x00, 0x06, 0x00, 0x00, 0x00, 0x4e, 0xff, 0xff, 0xff, 
  0x00, 0x00, 0x00, 0x01, 0x10, 0x00, 0x00, 0x00, 0x10, 0x00, 0x00, 0x00, 
  0x05, 0x00, 0x00, 0x00, 0x1c, 0x00, 0x00, 0x00, 0xd8, 0xfe, 0xff, 0xff, 
  0x0f, 0x00, 0x00, 0x00, 0x61, 0x72, 0x69, 0x74, 0x68, 0x2e, 0x63, 0x6f, 
  0x6e, 0x73, 0x74, 0x61, 0x6e, 0x74, 0x33, 0x00, 0x02, 0x00, 0x00, 0x00, 
  0x0a, 0x00, 0x00, 0x00, 0x14, 0x00, 0x00, 0x00, 0x8a, 0xff, 0xff, 0xff, 
  0x00, 0x00, 0x00, 0x01, 0x10, 0x00, 0x00, 0x00, 0x10, 0x00, 0x00, 0x00, 
  0x04, 0x00, 0x00, 0x00, 0x1c, 0x00, 0x00, 0x00, 0x14, 0xff, 0xff, 0xff, 
  0x0f, 0x00, 0x00, 0x00, 0x61, 0x72, 0x69, 0x74, 0x68, 0x2e, 0x63, 0x6f, 
  0x6e, 0x73, 0x74, 0x61, 0x6e, 0x74, 0x32, 0x00, 0x02, 0x00, 0x00, 0x00, 
  0x03, 0x00, 0x00, 0x00, 0x0a, 0x00, 0x00, 0x00, 0xc6, 0xff, 0xff, 0xff, 
  0x00, 0x00, 0x00, 0x01, 0x10, 0x00, 0x00, 0x00, 0x10, 0x00, 0x00, 0x00, 
  0x03, 0x00, 0x00, 0x00, 0x1c, 0x00, 0x00, 0x00, 0x50, 0xff, 0xff, 0xff, 
  0x0f, 0x00, 0x00, 0x00, 0x61, 0x72, 0x69, 0x74, 0x68, 0x2e, 0x63, 0x6f, 
  0x6e, 0x73, 0x74, 0x61, 0x6e, 0x74, 0x31, 0x00, 0x01, 0x00, 0x00, 0x00, 
  0x03, 0x00, 0x00, 0x00, 0x00, 0x00, 0x16, 0x00, 0x18, 0x00, 0x14, 0x00, 
  0x00, 0x00, 0x10, 0x00, 0x0c, 0x00, 0x08, 0x00, 0x00, 0x00, 0x00, 0x00, 
  0x00, 0x00, 0x07, 0x00, 0x16, 0x00, 0x00, 0x00, 0x00, 0x00, 0x00, 0x01, 
  0x10, 0x00, 0x00, 0x00, 0x10, 0x00, 0x00, 0x00, 0x02, 0x00, 0x00, 0x00, 
  0x1c, 0x00, 0x00, 0x00, 0xa0, 0xff, 0xff, 0xff, 0x0e, 0x00, 0x00, 0x00, 
  0x61, 0x72, 0x69, 0x74, 0x68, 0x2e, 0x63, 0x6f, 0x6e, 0x73, 0x74, 0x61, 
  0x6e, 0x74, 0x00, 0x00, 0x01, 0x00, 0x00, 0x00, 0x0a, 0x00, 0x00, 0x00, 
  0x00, 0x00, 0x16, 0x00, 0x1c, 0x00, 0x18, 0x00, 0x00, 0x00, 0x14, 0x00, 
  0x10, 0x00, 0x0c, 0x00, 0x00, 0x00, 0x00, 0x00, 0x08, 0x00, 0x07, 0x00, 
  0x16, 0x00, 0x00, 0x00, 0x00, 0x00, 0x00, 0x01, 0x14, 0x00, 0x00, 0x00, 
  0x20, 0x00, 0x00, 0x00, 0x20, 0x00, 0x00, 0x00, 0x01, 0x00, 0x00, 0x00, 
  0x40, 0x00, 0x00, 0x00, 0x02, 0x00, 0x00, 0x00, 0xff, 0xff, 0xff, 0xff, 
  0x06, 0x00, 0x00, 0x00, 0x04, 0x00, 0x04, 0x00, 0x04, 0x00, 0x00, 0x00, 
  0x20, 0x00, 0x00, 0x00, 0x73, 0x65, 0x72, 0x76, 0x69, 0x6e, 0x67, 0x5f, 
  0x64, 0x65, 0x66, 0x61, 0x75, 0x6c, 0x74, 0x5f, 0x6b, 0x65, 0x72, 0x61, 
  0x73, 0x5f, 0x74, 0x65, 0x6e, 0x73, 0x6f, 0x72, 0x5f, 0x38, 0x3a, 0x30, 
  0x00, 0x00, 0x00, 0x00, 0x02, 0x00, 0x00, 0x00, 0x01, 0x00, 0x00, 0x00, 
  0x06, 0x00, 0x00, 0x00, 0x02, 0x00, 0x00, 0x00, 0x20, 0x00, 0x00, 0x00, 
  0x04, 0x00, 0x00, 0x00, 0xf4, 0xff, 0xff, 0xff, 0x19, 0x00, 0x00, 0x00, 
  0x00, 0x00, 0x00, 0x19, 0x0c, 0x00, 0x0c, 0x00, 0x0b, 0x00, 0x00, 0x00, 
  0x00, 0x00, 0x04, 0x00, 0x0c, 0x00, 0x00, 0x00, 0x09, 0x00, 0x00, 0x00, 
  0x00, 0x00, 0x00, 0x09, 
};
